TRT-8503-MinMaxCalibration
images: 3c010204
/model.0/conv/Conv_output_0: 3c1509a8
/model.0/act/Sigmoid_output_0: 3bc4367d
/model.0/act/Mul_output_0: 3be2ad4f
/model.1/conv/Conv_output_0: 3b4495ea
/model.1/act/Sigmoid_output_0: 3b966bc4
/model.1/act/Mul_output_0: 3ac99a76
/model.2/cv1/conv/Conv_output_0: 3a652c85
/model.2/cv1/act/Sigmoid_output_0: 3b86b57a
/model.2/cv1/act/Mul_output_0: 39d876f7
/model.2/Split_output_0: 39bd769d
/model.2/Split_output_1: 39d876f7
/model.2/m.0/cv1/conv/Conv_output_0: 397e9c1e
/model.2/m.0/cv1/act/Sigmoid_output_0: 3b826d96
/model.2/m.0/cv1/act/Mul_output_0: 38faaf34
/model.2/m.0/cv2/conv/Conv_output_0: 38979f33
/model.2/m.0/cv2/act/Sigmoid_output_0: 3b818b0b
/model.2/m.0/cv2/act/Mul_output_0: 3816ed01
/model.2/m.0/Add_output_0: 39d0ad25
/model.2/Concat_output_0: 39d876f7
/model.2/cv2/conv/Conv_output_0: 397aaa2b
/model.2/cv2/act/Sigmoid_output_0: 3b82e4dc
/model.2/cv2/act/Mul_output_0: 38f6dc27
/model.3/cv1/conv/Conv_output_0: 38723e38
/model.3/cv1/act/Sigmoid_output_0: 3b81622e
/model.3/cv1/act/Mul_output_0: 37f15ac9
/model.3/cv2/conv/Conv_output_0: 37bbdec5
/model.3/cv2/act/Sigmoid_output_0: 3b81249e
/model.3/cv2/act/Mul_output_0: 373b9a5f
/model.3/Concat_output_0: 37f15ac9
/model.4/cv1/conv/Conv_output_0: 3779767b
/model.4/cv1/act/Sigmoid_output_0: 3b8118f2
/model.4/cv1/act/Mul_output_0: 36f93a2e
/model.4/Split_output_0: 36f93a2e
/model.4/Split_output_1: 36b7901b
/model.4/m.0/cv1/conv/Conv_output_0: 364ed974
/model.4/m.0/cv1/act/Sigmoid_output_0: 3b8107b2
/model.4/m.0/cv1/act/Mul_output_0: 35cecf16
/model.4/m.0/cv2/conv/Conv_output_0: 355efa86
/model.4/m.0/cv2/act/Sigmoid_output_0: 3b8103c2
/model.4/m.0/cv2/act/Mul_output_0: 34defd88
/model.4/m.0/Add_output_0: 36bb5813
/model.4/m.1/cv1/conv/Conv_output_0: 363e8a6b
/model.4/m.1/cv1/act/Sigmoid_output_0: 3b8107f8
/model.4/m.1/cv1/act/Mul_output_0: 35be9335
/model.4/m.1/cv2/conv/Conv_output_0: 35882133
/model.4/m.1/cv2/act/Sigmoid_output_0: 3b810424
/model.4/m.1/cv2/act/Mul_output_0: 35082372
/model.4/m.1/Add_output_0: 36bd51d4
/model.4/Concat_output_0: 36f93a2e
/model.4/cv2/conv/Conv_output_0: 36853ebf
/model.4/cv2/act/Sigmoid_output_0: 3b8109bd
/model.4/cv2/act/Mul_output_0: 36053625
/model.5/cv1/conv/Conv_output_0: 35af2af9
/model.5/cv1/act/Sigmoid_output_0: 3b810459
/model.5/cv1/act/Mul_output_0: 352f2742
/model.5/cv2/conv/Conv_output_0: 34fcfccf
/model.5/cv2/act/Sigmoid_output_0: 3b810301
/model.5/cv2/act/Mul_output_0: 347cfebe
/model.5/Concat_output_0: 352f2742
/model.6/cv1/conv/Conv_output_0: 34864313
/model.6/cv2/conv/Conv_output_0: 3486b9c2
/model.6/cv1/act/Sigmoid_output_0: 3b81027c
/model.6/cv2/act/Sigmoid_output_0: 3b81028b
/model.6/cv1/act/Mul_output_0: 34064288
/model.6/cv2/act/Mul_output_0: 3406ba4f
/model.6/m/m.0/conv/conv.0/cv1/conv/Conv_output_0: 338af715
/model.6/m/m.0/conv/conv.0/cv1/act/Sigmoid_output_0: 3b810226
/model.6/m/m.0/conv/conv.0/cv1/act/Mul_output_0: 330af6f0
/model.6/m/m.0/conv/conv.0/cv2/conv/Conv_output_0: 3299a273
/model.6/m/m.0/conv/conv.0/cv2/act/Sigmoid_output_0: 3b81020d
/model.6/m/m.0/conv/conv.0/cv2/act/Mul_output_0: 3219a268
/model.6/m/m.0/conv/conv.0/Concat_output_0: 330af6f0
/model.6/m/m.0/conv/conv.2/cv1/conv/Conv_output_0: 328b2e1a
/model.6/m/m.0/conv/conv.2/cv2/conv/Conv_output_0: 3206e4b0
/model.6/m/m.0/conv/conv.2/Concat_output_0: 328b2e1a
/model.6/m/m.0/Add_output_0: 34047eea
/model.6/m/m.1/conv/conv.0/cv1/conv/Conv_output_0: 33957066
/model.6/m/m.1/conv/conv.0/cv1/act/Sigmoid_output_0: 3b810229
/model.6/m/m.1/conv/conv.0/cv1/act/Mul_output_0: 33157091
/model.6/m/m.1/conv/conv.0/cv2/conv/Conv_output_0: 3304d4b4
/model.6/m/m.1/conv/conv.0/cv2/act/Sigmoid_output_0: 3b810214
/model.6/m/m.1/conv/conv.0/cv2/act/Mul_output_0: 3284d4c5
/model.6/m/m.1/conv/conv.0/Concat_output_0: 33157091
/model.6/m/m.1/conv/conv.2/cv1/conv/Conv_output_0: 32853ff8
/model.6/m/m.1/conv/conv.2/cv2/conv/Conv_output_0: 321e5191
/model.6/m/m.1/conv/conv.2/Concat_output_0: 32853ff8
/model.6/m/m.1/Add_output_0: 33feae8e
/model.6/Concat_output_0: 3406ba4f
/model.6/cv3/conv/Conv_output_0: 33841391
/model.6/cv3/act/Sigmoid_output_0: 3b810224
/model.6/cv3/act/Mul_output_0: 3304136f
/model.7/cv1/conv/Conv_output_0: 329e6441
/model.7/cv1/act/Sigmoid_output_0: 3b81020e
/model.7/cv1/act/Mul_output_0: 321e644d
/model.7/cv2/conv/Conv_output_0: 3229fed7
/model.7/cv2/act/Sigmoid_output_0: 3b810209
/model.7/cv2/act/Mul_output_0: 31a9fede
/model.7/Concat_output_0: 321e644d
/model.8/cv1/conv/Conv_output_0: 31939914
/model.8/cv2/conv/Conv_output_0: 31a19909
/model.8/cv1/act/Sigmoid_output_0: 3b810206
/model.8/cv2/act/Sigmoid_output_0: 3b810206
/model.8/cv1/act/Mul_output_0: 31139911
/model.8/cv2/act/Mul_output_0: 31219906
/model.8/m/m.0/conv/conv.0/cv1/conv/Conv_output_0: 30a248dc
/model.8/m/m.0/conv/conv.0/cv1/act/Sigmoid_output_0: 3b810205
/model.8/m/m.0/conv/conv.0/cv1/act/Mul_output_0: 302248dd
/model.8/m/m.0/conv/conv.0/cv2/conv/Conv_output_0: 2fec6615
/model.8/m/m.0/conv/conv.0/cv2/act/Sigmoid_output_0: 3b810204
/model.8/m/m.0/conv/conv.0/cv2/act/Mul_output_0: 2f6c6615
/model.8/m/m.0/conv/conv.0/Concat_output_0: 302248dd
/model.8/m/m.0/conv/conv.2/cv1/conv/Conv_output_0: 2fa25de7
/model.8/m/m.0/conv/conv.2/cv2/conv/Conv_output_0: 2f7e64dc
/model.8/m/m.0/conv/conv.2/Concat_output_0: 2fa25de7
/model.8/m/m.0/Add_output_0: 311df681
/model.8/Concat_output_0: 31219906
/model.8/cv3/conv/Conv_output_0: 30ace937
/model.8/cv3/act/Sigmoid_output_0: 3b810205
/model.8/cv3/act/Mul_output_0: 302ce938
/model.9/cv1/conv/Conv_output_0: 2fc9c251
/model.9/cv1/act/Sigmoid_output_0: 3b810204
/model.9/cv1/act/Mul_output_0: 2f49c251
/model.9/m/MaxPool_output_0: 2f49c251
/model.9/m_1/MaxPool_output_0: 2f49c251
/model.9/m_2/MaxPool_output_0: 2f49c251
/model.9/Concat_output_0: 2f49c251
/model.9/cv2/conv/Conv_output_0: 2ef37268
/model.9/cv2/act/Sigmoid_output_0: 3b810204
/model.9/cv2/act/Mul_output_0: 2e737268
/model.10/Resize_output_0: 2e737268
/model.11/Concat_output_0: 3304136f
/model.12/cv1/conv/Conv_output_0: 32542bc2
/model.12/cv2/conv/Conv_output_0: 32614078
/model.12/cv1/act/Sigmoid_output_0: 3b81020a
/model.12/cv2/act/Sigmoid_output_0: 3b81020a
/model.12/cv1/act/Mul_output_0: 31d42bb6
/model.12/cv2/act/Mul_output_0: 31e1406c
/model.12/m/m.0/conv/conv.0/cv1/conv/Conv_output_0: 314e3ffe
/model.12/m/m.0/conv/conv.0/cv1/act/Sigmoid_output_0: 3b810206
/model.12/m/m.0/conv/conv.0/cv1/act/Mul_output_0: 30ce4001
/model.12/m/m.0/conv/conv.0/cv2/conv/Conv_output_0: 308191af
/model.12/m/m.0/conv/conv.0/cv2/act/Sigmoid_output_0: 3b810205
/model.12/m/m.0/conv/conv.0/cv2/act/Mul_output_0: 300191b0
/model.12/m/m.0/conv/conv.0/Concat_output_0: 30ce4001
/model.12/m/m.0/conv/conv.2/cv1/conv/Conv_output_0: 301b9d84
/model.12/m/m.0/conv/conv.2/cv2/conv/Conv_output_0: 301a737d
/model.12/m/m.0/conv/conv.2/Concat_output_0: 301b9d84
/model.12/m/m.0/Add_output_0: 31d37382
/model.12/Concat_output_0: 31e1406c
/model.12/cv3/conv/Conv_output_0: 31a63aeb
/model.12/cv3/act/Sigmoid_output_0: 3b810207
/model.12/cv3/act/Mul_output_0: 31263aef
/model.13/Resize_output_0: 31263aef
/model.14/Concat_output_0: 36053625
/model.15/cv1/conv/Conv_output_0: 351ec38b
/model.15/cv2/conv/Conv_output_0: 3517df58
/model.15/cv1/act/Sigmoid_output_0: 3b810342
/model.15/cv2/act/Sigmoid_output_0: 3b810333
/model.15/cv1/act/Mul_output_0: 349ec512
/model.15/cv2/act/Mul_output_0: 3497e0bc
/model.15/m/m.0/conv/conv.0/cv1/conv/Conv_output_0: 343808cb
/model.15/m/m.0/conv/conv.0/cv1/act/Sigmoid_output_0: 3b810256
/model.15/m/m.0/conv/conv.0/cv1/act/Mul_output_0: 33b80847
/model.15/m/m.0/conv/conv.0/cv2/conv/Conv_output_0: 3353e98f
/model.15/m/m.0/conv/conv.0/cv2/act/Sigmoid_output_0: 3b81021e
/model.15/m/m.0/conv/conv.0/cv2/act/Mul_output_0: 32d3e9ba
/model.15/m/m.0/conv/conv.0/Concat_output_0: 33b80847
/model.15/m/m.0/conv/conv.2/cv1/conv/Conv_output_0: 33389b73
/model.15/m/m.0/conv/conv.2/cv2/conv/Conv_output_0: 3301bd7e
/model.15/m/m.0/conv/conv.2/Concat_output_0: 33389b73
/model.15/m/m.0/Add_output_0: 34a1afc2
/model.15/Concat_output_0: 34a1afc2
/model.15/cv3/conv/Conv_output_0: 3439b175
/model.15/cv3/act/Sigmoid_output_0: 3b810261
/model.15/cv3/act/Mul_output_0: 33b9b1fa
/model.16/cv1/conv/Conv_output_0: 333dfbba
/model.22/proto/cv1/conv/Conv_output_0: 333309cf
/model.22/cv4.0/cv4.0.0/conv/Conv_output_0: 3348b50f
/model.22/cv2.0/cv2.0.0/conv/Conv_output_0: 3355e20a
/model.22/cv3.0/cv3.0.0/conv/Conv_output_0: 334f1f24
/model.16/cv1/act/Sigmoid_output_0: 3b810219
/model.22/proto/cv1/act/Sigmoid_output_0: 3b81021a
/model.22/cv4.0/cv4.0.0/act/Sigmoid_output_0: 3b810219
/model.22/cv2.0/cv2.0.0/act/Sigmoid_output_0: 3b81021b
/model.22/cv3.0/cv3.0.0/act/Sigmoid_output_0: 3b81021e
/model.16/cv1/act/Mul_output_0: 32bdfb97
/model.22/proto/cv1/act/Mul_output_0: 32b309af
/model.22/cv4.0/cv4.0.0/act/Mul_output_0: 32c8b4e8
/model.22/cv2.0/cv2.0.0/act/Mul_output_0: 32d5e1de
/model.22/cv3.0/cv3.0.0/act/Mul_output_0: 32cf1f4f
/model.16/cv2/conv/Conv_output_0: 329313ec
/model.22/proto/upsample/ConvTranspose_output_0: 39fe3d13
/model.22/cv4.0/cv4.0.1/conv/Conv_output_0: 3235e9f6
/model.22/cv2.0/cv2.0.1/conv/Conv_output_0: 323c45a0
/model.22/cv3.0/cv3.0.1/conv/Conv_output_0: 327edfde
/model.16/cv2/act/Sigmoid_output_0: 3b81020d
/model.22/proto/cv2/conv/Conv_output_0: 39b986a2
/model.22/cv4.0/cv4.0.1/act/Sigmoid_output_0: 3b81020a
/model.22/cv2.0/cv2.0.1/act/Sigmoid_output_0: 3b81020a
/model.22/cv3.0/cv3.0.1/act/Sigmoid_output_0: 3b81020b
/model.16/cv2/act/Mul_output_0: 321313f6
/model.22/proto/cv2/act/Sigmoid_output_0: 3b83e800
/model.22/cv4.0/cv4.0.1/act/Mul_output_0: 31b5e9ee
/model.22/cv2.0/cv2.0.1/act/Mul_output_0: 31bc45a9
/model.22/cv3.0/cv3.0.1/act/Mul_output_0: 31fedfce
/model.17/Concat_output_0: 32bdfb97
/model.22/proto/cv2/act/Mul_output_0: 393db1ae
/model.22/cv4.0/cv4.0.2/Conv_output_0: 3ab22456
/model.22/cv2.0/cv2.0.2/Conv_output_0: 3c010208
/model.22/cv3.0/cv3.0.2/Conv_output_0: 3dba1428
/model.18/cv1/conv/Conv_output_0: 31cf9cd3
/model.18/cv2/conv/Conv_output_0: 31e6874d
/model.22/proto/cv3/conv/Conv_output_0: 38f3eb44
/model.22/Reshape_output_0: 3ab22456
/model.22/Concat_1_output_0: 3dba1428
/model.18/cv1/act/Sigmoid_output_0: 3b810207
/model.18/cv2/act/Sigmoid_output_0: 3b810207
/model.22/proto/cv3/act/Sigmoid_output_0: 3b81f5ee
/model.22/Reshape_3_output_0: 3dba1428
/model.18/cv1/act/Mul_output_0: 314f9cd8
/model.18/cv2/act/Mul_output_0: 31668747
output1: 3875b870
/model.18/m/m.0/conv/conv.0/cv1/conv/Conv_output_0: 30c5a642
/model.18/m/m.0/conv/conv.0/cv1/act/Sigmoid_output_0: 3b810205
/model.18/m/m.0/conv/conv.0/cv1/act/Mul_output_0: 3045a63f
/model.18/m/m.0/conv/conv.0/cv2/conv/Conv_output_0: 3020ed1f
/model.18/m/m.0/conv/conv.0/cv2/act/Sigmoid_output_0: 3b810204
/model.18/m/m.0/conv/conv.0/cv2/act/Mul_output_0: 2fa0ed1e
/model.18/m/m.0/conv/conv.0/Concat_output_0: 3045a63f
/model.18/m/m.0/conv/conv.2/cv1/conv/Conv_output_0: 2fadd28d
/model.18/m/m.0/conv/conv.2/cv2/conv/Conv_output_0: 2f693ed6
/model.18/m/m.0/conv/conv.2/Concat_output_0: 2fadd28d
/model.18/m/m.0/Add_output_0: 31503012
/model.18/Concat_output_0: 31668747
/model.18/cv3/conv/Conv_output_0: 31053ddc
/model.18/cv3/act/Sigmoid_output_0: 3b810205
/model.18/cv3/act/Mul_output_0: 30853ddb
/model.19/conv/Conv_output_0: 300074c0
/model.22/cv4.1/cv4.1.0/conv/Conv_output_0: 30015891
/model.22/cv2.1/cv2.1.0/conv/Conv_output_0: 3011d562
/model.22/cv3.1/cv3.1.0/conv/Conv_output_0: 30048a9c
/model.19/act/Sigmoid_output_0: 3b810204
/model.22/cv4.1/cv4.1.0/act/Sigmoid_output_0: 3b810204
/model.22/cv2.1/cv2.1.0/act/Sigmoid_output_0: 3b810204
/model.22/cv3.1/cv3.1.0/act/Sigmoid_output_0: 3b810204
/model.19/act/Mul_output_0: 2f8074c0
/model.22/cv4.1/cv4.1.0/act/Mul_output_0: 2f815890
/model.22/cv2.1/cv2.1.0/act/Mul_output_0: 2f91d562
/model.22/cv3.1/cv3.1.0/act/Mul_output_0: 2f848a9b
/model.20/Concat_output_0: 2f8074c0
/model.22/cv4.1/cv4.1.1/conv/Conv_output_0: 2f1337c9
/model.22/cv2.1/cv2.1.1/conv/Conv_output_0: 2f20bdd7
/model.22/cv3.1/cv3.1.1/conv/Conv_output_0: 2f18542a
/model.21/cv1/conv/Conv_output_0: 2ead34a0
/model.21/cv2/conv/Conv_output_0: 2ec6d47e
/model.22/cv4.1/cv4.1.1/act/Sigmoid_output_0: 3b810204
/model.22/cv2.1/cv2.1.1/act/Sigmoid_output_0: 3b810204
/model.22/cv3.1/cv3.1.1/act/Sigmoid_output_0: 3b810204
/model.21/cv1/act/Sigmoid_output_0: 3b810204
/model.21/cv2/act/Sigmoid_output_0: 3b810204
/model.22/cv4.1/cv4.1.1/act/Mul_output_0: 2e9337c9
/model.22/cv2.1/cv2.1.1/act/Mul_output_0: 2ea0bdd7
/model.22/cv3.1/cv3.1.1/act/Mul_output_0: 2e98542a
/model.21/cv1/act/Mul_output_0: 2e2d34a0
/model.21/cv2/act/Mul_output_0: 2e46d47e
/model.22/cv4.1/cv4.1.2/Conv_output_0: 3aaf1e3c
/model.22/cv2.1/cv2.1.2/Conv_output_0: 3c010204
/model.22/cv3.1/cv3.1.2/Conv_output_0: 3da3a74f
/model.21/m/m.0/conv/conv.0/cv1/conv/Conv_output_0: 2dae66d8
/model.22/Reshape_1_output_0: 3aaf1e3c
/model.22/Concat_2_output_0: 3da3a74f
/model.21/m/m.0/conv/conv.0/cv1/act/Sigmoid_output_0: 3b810204
/model.22/Reshape_4_output_0: 3da3a74f
/model.21/m/m.0/conv/conv.0/cv1/act/Mul_output_0: 2d2e66d8
/model.21/m/m.0/conv/conv.0/cv2/conv/Conv_output_0: 2cf05f66
/model.21/m/m.0/conv/conv.0/cv2/act/Sigmoid_output_0: 3b810204
/model.21/m/m.0/conv/conv.0/cv2/act/Mul_output_0: 2c705f66
/model.21/m/m.0/conv/conv.0/Concat_output_0: 2d2e66d8
/model.21/m/m.0/conv/conv.2/cv1/conv/Conv_output_0: 2c97dc33
/model.21/m/m.0/conv/conv.2/cv2/conv/Conv_output_0: 2c3dd531
/model.21/m/m.0/conv/conv.2/Concat_output_0: 2c97dc33
/model.21/m/m.0/Add_output_0: 2e2ccfd4
/model.21/Concat_output_0: 2e46d47e
/model.21/cv3/conv/Conv_output_0: 2de721ae
/model.21/cv3/act/Sigmoid_output_0: 3b810204
/model.21/cv3/act/Mul_output_0: 2d6721ae
/model.22/cv4.2/cv4.2.0/conv/Conv_output_0: 2cd4be14
/model.22/cv2.2/cv2.2.0/conv/Conv_output_0: 2ce4d1a1
/model.22/cv3.2/cv3.2.0/conv/Conv_output_0: 2cf70762
/model.22/cv4.2/cv4.2.0/act/Sigmoid_output_0: 3b810204
/model.22/cv2.2/cv2.2.0/act/Sigmoid_output_0: 3b810204
/model.22/cv3.2/cv3.2.0/act/Sigmoid_output_0: 3b810204
/model.22/cv4.2/cv4.2.0/act/Mul_output_0: 2c54be14
/model.22/cv2.2/cv2.2.0/act/Mul_output_0: 2c64d1a1
/model.22/cv3.2/cv3.2.0/act/Mul_output_0: 2c770762
/model.22/cv4.2/cv4.2.1/conv/Conv_output_0: 2bf02fdd
/model.22/cv2.2/cv2.2.1/conv/Conv_output_0: 2c0725e1
/model.22/cv3.2/cv3.2.1/conv/Conv_output_0: 2c2973b6
/model.22/cv4.2/cv4.2.1/act/Sigmoid_output_0: 3b810204
/model.22/cv2.2/cv2.2.1/act/Sigmoid_output_0: 3b810204
/model.22/cv3.2/cv3.2.1/act/Sigmoid_output_0: 3b810204
/model.22/cv4.2/cv4.2.1/act/Mul_output_0: 2b702fdd
/model.22/cv2.2/cv2.2.1/act/Mul_output_0: 2b8725e1
/model.22/cv3.2/cv3.2.1/act/Mul_output_0: 2ba973b6
/model.22/cv4.2/cv4.2.2/Conv_output_0: 3ab48912
/model.22/cv2.2/cv2.2.2/Conv_output_0: 3c010204
/model.22/cv3.2/cv3.2.2/Conv_output_0: 3d8d5ab5
/model.22/Reshape_2_output_0: 3ab48912
/model.22/Concat_3_output_0: 3d8d5ab5
/model.22/Concat_output_0: 3ab48912
/model.22/Reshape_5_output_0: 3d8d5ab5
/model.22/Concat_4_output_0: 3dba1428
/model.22/Split_output_0: 3c010208
/model.22/Split_output_1: 3dba1428
/model.22/dfl/Reshape_output_0: 3c010208
/model.22/Sigmoid_output_0: 35a3b76f
/model.22/dfl/Transpose_output_0: 3c010208
(Unnamed Layer* 317) [Softmax]_output: 3a01020a
/model.22/dfl/conv/Conv_output_0: 3d71e3cb
/model.22/dfl/Reshape_1_output_0: 3d71e3cb
/model.22/Slice_output_0: 3d71e3cb
/model.22/Slice_1_output_0: 3d71e3c9
(Unnamed Layer* 323) [Constant]_output: 3f204081
/model.22/Sub_output_0: 3f112245
(Unnamed Layer* 325) [Constant]_output: 3f204081
/model.22/Add_1_output_0: 3f2f5ebd
/model.22/Add_2_output_0: 3fa04081
/model.22/Sub_1_output_0: 3df1e3c9
(Unnamed Layer* 330) [Shuffle]_output: 3c810204
/model.22/Div_1_output_0: 3f204081
/model.22/Concat_5_output_0: 3f204081
(Unnamed Layer* 333) [Constant]_output: 3e810204
(Unnamed Layer* 334) [Shuffle]_output: 3e810204
/model.22/Mul_2_output_0: 40a04081
output0: 40a04081
